memory_initialization_radix=16;
memory_initialization_vector=
409ac0004189b00041c45000419db000,
4032800041d04000c19a100040934000,
41e0700040ffc000c2d6080041af2000,
40b5c000422ae000422da000422ea800,
3cf8c0b13f169cf2bc6300e2bef44064,
3b99c330bf6b27603cf136683f126f5f,
3fb5289cc020ccfe0000000000000000,
bed1be66000000000000000000000000,
3cdfd960000000000000000000000000,
3f8a6472000000000000000000000000;